//Numpy array shape [26, 4]
//Min -0.421875000000
//Max 0.421875000000
//Number of zeros 26

#ifndef W2_H_
#define W2_H_

#ifndef __SYNTHESIS__
weight2_t w2[104];
#else
weight2_t w2[104] = {0.421875, -0.406250, 0.078125, -0.234375, 0.140625, 0.156250, 0.000000, 0.218750, 0.000000, 0.296875, -0.187500, 0.000000, 0.265625, 0.125000, -0.343750, 0.046875, 0.125000, 0.156250, 0.093750, -0.203125, -0.203125, 0.000000, 0.000000, 0.000000, 0.000000, 0.000000, 0.078125, -0.156250, -0.093750, -0.140625, 0.234375, -0.406250, -0.046875, 0.000000, -0.390625, 0.296875, 0.000000, 0.062500, 0.078125, 0.000000, -0.187500, -0.203125, 0.140625, 0.343750, 0.000000, 0.000000, 0.171875, 0.000000, 0.000000, -0.312500, 0.109375, 0.203125, 0.000000, -0.250000, 0.000000, 0.218750, -0.218750, 0.343750, 0.000000, -0.156250, 0.000000, -0.187500, 0.000000, 0.000000, 0.046875, -0.281250, 0.250000, -0.109375, -0.140625, 0.218750, -0.187500, -0.171875, 0.296875, 0.234375, 0.000000, -0.265625, -0.078125, -0.171875, 0.265625, 0.375000, -0.093750, -0.359375, -0.359375, 0.000000, 0.031250, -0.343750, 0.312500, 0.187500, 0.000000, -0.156250, -0.328125, -0.421875, -0.093750, -0.390625, 0.312500, 0.390625, -0.046875, -0.218750, 0.000000, 0.140625, -0.125000, -0.187500, -0.359375, 0.000000};
#endif

#endif
