//Numpy array shape [26, 4]
//Min -0.937500000000
//Max 0.648437500000
//Number of zeros 37

#ifndef W2_H_
#define W2_H_

#ifndef __SYNTHESIS__
weight2_t w2[104];
#else
weight2_t w2[104] = {-0.9375000, 0.1640625, 0.3515625, -0.5234375, 0.0703125, 0.0000000, 0.0078125, -0.0781250, 0.1171875, 0.0000000, -0.0078125, -0.2265625, -0.7578125, 0.3046875, 0.2656250, -0.4062500, 0.2734375, 0.0000000, 0.0000000, -0.2265625, -0.0156250, 0.0000000, 0.0000000, -0.0078125, -0.2734375, 0.1953125, -0.0781250, -0.3671875, 0.0234375, 0.0000000, 0.0000000, -0.0546875, 0.0156250, 0.0000000, 0.0000000, -0.0625000, -0.0156250, 0.0000000, 0.0546875, -0.6328125, -0.0703125, 0.0000000, 0.0000000, 0.1640625, 0.0000000, 0.0078125, 0.0000000, -0.0156250, -0.3281250, 0.2031250, 0.3984375, -0.1171875, 0.0000000, 0.0000000, 0.0000000, 0.0000000, -0.1015625, 0.0000000, 0.0000000, 0.2656250, -0.1484375, 0.1953125, 0.3750000, -0.4921875, -0.0156250, 0.0000000, 0.0000000, 0.0000000, -0.2343750, 0.0000000, 0.0000000, 0.6484375, -0.0468750, 0.1250000, 0.2734375, -0.1015625, -0.0078125, 0.0000000, 0.0156250, 0.0000000, -0.0156250, 0.0000000, -0.0234375, 0.0703125, 0.0156250, 0.0000000, -0.0078125, 0.0000000, -0.0390625, 0.0000000, 0.1250000, -0.2187500, 0.0234375, 0.0000000, 0.0000000, -0.0468750, 0.0000000, 0.0000000, 0.0078125, 0.0312500, 0.0078125, 0.0000000, 0.0390625, -0.0859375};
#endif

#endif
