//Numpy array shape [26, 64]
//Min -0.437500000000
//Max 0.437500000000
//Number of zeros 892

#ifndef W2_H_
#define W2_H_

#ifndef __SYNTHESIS__
weight2_t w2[1664];
#else
weight2_t w2[1664] = {0.2500, -0.3125, 0.0000, 0.0000, 0.0000, 0.0000, 0.0000, 0.0000, 0.0000, -0.1875, -0.1250, 0.3125, -0.1250, 0.4375, -0.3125, 0.0000, -0.0625, 0.0000, -0.3750, 0.1250, -0.0625, 0.0000, 0.0000, -0.0625, -0.2500, -0.0625, 0.0000, 0.0000, 0.0000, 0.0000, 0.1875, 0.4375, -0.1875, -0.2500, 0.0000, 0.0000, 0.0000, 0.0000, 0.0000, 0.0000, -0.2500, 0.3750, 0.0625, 0.0000, -0.1250, 0.0000, 0.0625, 0.0625, 0.0000, -0.2500, -0.2500, 0.2500, 0.0000, -0.3125, -0.1250, 0.0000, 0.0000, -0.1250, 0.0000, 0.1250, 0.0000, 0.0000, 0.3125, -0.1875, 0.0625, 0.1250, 0.0000, 0.0000, 0.0000, 0.1875, -0.0625, 0.0000, -0.1875, 0.2500, 0.0000, -0.1250, 0.1250, 0.0000, 0.0000, 0.0000, 0.0000, 0.0000, -0.1250, 0.1250, 0.0625, 0.0000, -0.0625, 0.0000, 0.0000, 0.0000, 0.0000, 0.0000, 0.1875, 0.0000, -0.1250, 0.1250, 0.0000, 0.0000, 0.0625, -0.1875, 0.0000, 0.0000, -0.0625, 0.0000, 0.0000, 0.0000, 0.0000, 0.1250, -0.1250, -0.1250, 0.0000, -0.0625, -0.0625, 0.0000, 0.0000, 0.0000, 0.0000, 0.0000, 0.0000, 0.1250, 0.2500, -0.0625, 0.0000, -0.1250, 0.0000, 0.0625, 0.1250, -0.0625, 0.0000, 0.0000, -0.1875, 0.0000, 0.0000, 0.0000, 0.0000, 0.0625, 0.0625, 0.0000, 0.0000, 0.0000, -0.0625, 0.0000, 0.0000, 0.0000, -0.1250, 0.0000, 0.0000, 0.0000, 0.0000, 0.0000, 0.0000, -0.1250, 0.0000, 0.0000, 0.0000, 0.1250, -0.0625, -0.0625, 0.0000, 0.0625, 0.1875, 0.0000, 0.0000, 0.3125, 0.3125, 0.0625, 0.1875, 0.0000, 0.0625, 0.0000, 0.0625, 0.0000, -0.1875, 0.0000, -0.1875, 0.2500, 0.0000, -0.1250, 0.0000, 0.0000, 0.0000, -0.0625, 0.0000, 0.0000, 0.1250, 0.0000, 0.0000, 0.0625, -0.0625, 0.0000, 0.0000, 0.0000, 0.0000, 0.0625, 0.0000, 0.0000, 0.0000, 0.0000, 0.0000, 0.0000, 0.0000, 0.1875, 0.0000, 0.1875, 0.0000, 0.0000, -0.3125, 0.1875, 0.0000, 0.2500, 0.0000, -0.0625, -0.0625, 0.0000, -0.0625, 0.1250, 0.0000, 0.1250, 0.0000, 0.0000, 0.0625, -0.4375, 0.0000, -0.0625, 0.3125, 0.0000, -0.0625, 0.1250, 0.1875, 0.0000, 0.0000, 0.0000, 0.0000, 0.0625, 0.0000, -0.0625, 0.1875, -0.2500, 0.0000, -0.1250, -0.1250, -0.1250, 0.0000, -0.1875, 0.0000, 0.1875, 0.3125, 0.0625, 0.0000, -0.2500, 0.0000, 0.1250, -0.0625, 0.0000, 0.0000, 0.0000, 0.0000, 0.0000, 0.0000, 0.0000, 0.0000, -0.0625, 0.0000, -0.1250, 0.0000, -0.1250, -0.0625, 0.0000, 0.0000, 0.1875, -0.1250, 0.0000, 0.0000, 0.0000, 0.1250, 0.0000, 0.0000, 0.0000, 0.1875, -0.0625, 0.0000, 0.1250, 0.0000, 0.1875, -0.1250, 0.0000, 0.2500, 0.1250, 0.0000, 0.0625, 0.0000, 0.3750, 0.1250, 0.0000, 0.0000, -0.0625, -0.0625, -0.1250, 0.2500, -0.1250, -0.1875, 0.1250, 0.2500, 0.0000, 0.0625, 0.0625, 0.1875, -0.0625, 0.1875, 0.0000, -0.1875, 0.0000, 0.0000, 0.0000, -0.0625, 0.1875, -0.1250, 0.0000, 0.0625, 0.0000, 0.0000, 0.3750, -0.1250, 0.0000, 0.0000, -0.1250, 0.0000, -0.1250, -0.1250, 0.0000, -0.0625, 0.0000, -0.1250, 0.0625, 0.0000, 0.1875, 0.0000, 0.0000, -0.2500, 0.1250, 0.0000, -0.1250, 0.0000, -0.1250, 0.0625, 0.0000, 0.0000, 0.2500, 0.0000, 0.0000, 0.0000, 0.1875, 0.0000, -0.0625, 0.0000, -0.1875, 0.0625, 0.0000, -0.1250, 0.0000, -0.0625, 0.0000, 0.0000, -0.0625, -0.1875, 0.1875, 0.1250, -0.1875, 0.0000, 0.1875, 0.0000, -0.1875, 0.0625, 0.0000, -0.1875, -0.0625, 0.2500, 0.1250, -0.1875, 0.0000, 0.0625, -0.0625, -0.1250, 0.0000, 0.1250, -0.2500, 0.0000, 0.0000, 0.0000, -0.1875, -0.0625, 0.1250, 0.1250, 0.0000, 0.1875, 0.3750, 0.1875, 0.0000, -0.2500, 0.0000, -0.1875, 0.0000, 0.0000, 0.0000, 0.0000, 0.0000, 0.0000, 0.0625, 0.0000, -0.0625, 0.0000, -0.1250, 0.1875, -0.3750, -0.3125, 0.3125, 0.0000, -0.3125, -0.0625, 0.1250, 0.0000, 0.0000, 0.1250, 0.0000, -0.3125, 0.0000, 0.0000, 0.0625, 0.1875, 0.0000, 0.2500, 0.0000, -0.1250, -0.3125, 0.0000, -0.2500, 0.0000, 0.2500, 0.2500, 0.0000, 0.0000, 0.0000, 0.1875, 0.0000, 0.2500, 0.0000, 0.0000, -0.2500, 0.0000, 0.0000, 0.1250, 0.0000, 0.0000, -0.3125, 0.0000, 0.0000, 0.0000, -0.1250, -0.1875, 0.0000, 0.3750, 0.1250, 0.0000, -0.0625, 0.1250, 0.1250, 0.0000, 0.0000, 0.0000, 0.0000, 0.1875, -0.0625, -0.1875, 0.0000, 0.0000, 0.1875, 0.0000, 0.3750, -0.0625, 0.0000, 0.1875, 0.0000, 0.0000, 0.2500, 0.0000, 0.0000, 0.1875, 0.0000, -0.3125, 0.0625, 0.0000, 0.1250, 0.2500, 0.0000, -0.1875, 0.0000, 0.0000, 0.1875, 0.3750, -0.1250, 0.0625, 0.0625, 0.0000, 0.3125, -0.0625, 0.0000, 0.0000, 0.0000, 0.0000, 0.0000, -0.1250, 0.0000, 0.0000, 0.0000, 0.0000, 0.0000, 0.0000, -0.1250, 0.0000, -0.0625, 0.0000, -0.0625, -0.0625, 0.0000, 0.0000, 0.0000, 0.1875, 0.0000, 0.0000, 0.0000, -0.0625, 0.0000, -0.0625, 0.0000, 0.1250, 0.0000, 0.0000, 0.0000, 0.0000, 0.0625, 0.0000, -0.2500, 0.0000, -0.0625, 0.0000, 0.0000, 0.0000, -0.1250, 0.0000, 0.0000, 0.3125, 0.0000, 0.0000, 0.1250, 0.0000, 0.0000, -0.3750, 0.0000, 0.0000, -0.1250, 0.0000, 0.0625, 0.2500, 0.0000, 0.1875, 0.1250, 0.0000, 0.0625, 0.2500, -0.1250, -0.1250, 0.0625, -0.1875, 0.0000, -0.1250, 0.0000, 0.1875, 0.1875, 0.0000, 0.0000, 0.0000, -0.4375, 0.0000, 0.1250, 0.0000, 0.2500, 0.1250, 0.3125, 0.0000, 0.0000, -0.2500, 0.0000, 0.1875, 0.1875, 0.0000, -0.1250, 0.0000, 0.0000, -0.0625, 0.0000, 0.0000, 0.0000, 0.0000, 0.1250, -0.1250, 0.0000, 0.1250, 0.0000, 0.0625, 0.0000, 0.0000, 0.0000, 0.1250, 0.0000, 0.1250, 0.0000, -0.3125, 0.0000, 0.0000, 0.0000, -0.1250, 0.1250, 0.0625, 0.3125, 0.1250, 0.0000, 0.0000, 0.0000, 0.0000, 0.0000, -0.1875, -0.1875, 0.0000, 0.1875, -0.1250, 0.2500, 0.0000, 0.0000, -0.2500, -0.3125, 0.0000, 0.3750, 0.0000, 0.0000, 0.0000, -0.0625, -0.2500, 0.0000, 0.0000, 0.0000, 0.2500, 0.0000, -0.3125, 0.0625, -0.3125, 0.0625, 0.0000, 0.0000, -0.3125, 0.0000, 0.0000, 0.0000, 0.1250, 0.0000, 0.0625, 0.0000, 0.0000, -0.0625, 0.0000, -0.2500, 0.0000, 0.0000, 0.0000, 0.0625, 0.0000, 0.1250, 0.0000, 0.0000, -0.0625, 0.0000, 0.1250, 0.0000, 0.0000, 0.0000, -0.2500, 0.0000, 0.2500, 0.0000, 0.1875, 0.0625, 0.0000, -0.1875, 0.0625, 0.0000, 0.0000, 0.0625, -0.2500, -0.1250, 0.0000, 0.0000, -0.2500, 0.0000, 0.0000, 0.1875, 0.0000, 0.0000, 0.0000, 0.0000, 0.0000, 0.0625, 0.0000, -0.2500, 0.0000, 0.0000, 0.1875, 0.0000, 0.1875, -0.0625, -0.0625, 0.1250, 0.0000, 0.0000, 0.0000, 0.1250, 0.1875, 0.0000, -0.1250, -0.0625, 0.2500, 0.0000, 0.0000, 0.0000, 0.0625, 0.0000, 0.0000, 0.0000, 0.1250, 0.1875, 0.0000, -0.1875, 0.1875, 0.0000, 0.0000, 0.0000, -0.1250, 0.0000, 0.0000, 0.0000, -0.0625, 0.1875, 0.0000, -0.0625, -0.1875, -0.0625, -0.1875, 0.0000, 0.0000, 0.0000, 0.0000, 0.0000, 0.0000, 0.1250, 0.0000, 0.0000, 0.0000, 0.0000, 0.0000, -0.1875, 0.0000, -0.1250, 0.0000, 0.0000, 0.0000, 0.0000, -0.0625, 0.1875, -0.0625, 0.1875, 0.0000, -0.0625, 0.0000, 0.0000, -0.0625, 0.0000, 0.0000, 0.4375, -0.4375, 0.0000, 0.0000, 0.0000, -0.0625, -0.0625, -0.2500, 0.0000, 0.0000, 0.2500, 0.1875, -0.2500, 0.0625, 0.0000, 0.0000, 0.1875, 0.0000, 0.0000, 0.0000, 0.0625, 0.0000, 0.0000, 0.0000, 0.0000, 0.0000, 0.0625, -0.2500, 0.0000, -0.3125, 0.1250, 0.0000, 0.0000, -0.2500, 0.0000, 0.0000, 0.0000, 0.0000, 0.0000, -0.1250, 0.0000, 0.0000, 0.0000, 0.0625, -0.1250, 0.0000, -0.1250, 0.0000, -0.3125, 0.0625, 0.0000, 0.0000, 0.0000, 0.1250, 0.0000, 0.0000, 0.0000, 0.0000, 0.1875, 0.0000, 0.0625, 0.3125, 0.0000, 0.0000, 0.0000, -0.3125, 0.0000, 0.0000, 0.0000, 0.0000, 0.0000, -0.2500, 0.0000, 0.0000, 0.3125, 0.0000, -0.1875, 0.0000, 0.0000, -0.1250, 0.1875, -0.3125, -0.0625, -0.1250, 0.0000, -0.1875, 0.0000, 0.0625, 0.0000, 0.0000, -0.1250, 0.0625, -0.0625, 0.1250, 0.0000, -0.0625, -0.3125, 0.0000, 0.0000, 0.0625, 0.0000, 0.0000, -0.3750, 0.0000, -0.1250, 0.0000, 0.0000, 0.2500, -0.2500, 0.0000, 0.2500, 0.0625, -0.0625, 0.0000, 0.0000, 0.0000, 0.0625, 0.0000, 0.1875, 0.0000, 0.0000, -0.0625, -0.0625, -0.1875, 0.0000, -0.0625, 0.0000, -0.1250, 0.1250, 0.0000, 0.0000, 0.0625, 0.0000, 0.1250, 0.0625, 0.0000, 0.0000, 0.0000, -0.0625, 0.0000, 0.0000, -0.1250, 0.1250, 0.1875, 0.2500, 0.0000, 0.0000, 0.0625, 0.1250, 0.1250, 0.0000, -0.1250, -0.0625, 0.0000, 0.0000, 0.0000, 0.0000, 0.0000, 0.0000, -0.0625, -0.1875, 0.0625, 0.0625, -0.1250, 0.0000, 0.0000, 0.0000, 0.1875, 0.0000, 0.0000, 0.0000, 0.0000, -0.1250, 0.0000, -0.1250, 0.0000, -0.1250, 0.0000, 0.0000, 0.0000, 0.1250, 0.0000, -0.0625, 0.0000, 0.2500, -0.1875, 0.2500, 0.0000, 0.1250, 0.0000, 0.1250, -0.1250, 0.2500, -0.1250, 0.0000, -0.1250, 0.0000, -0.1250, -0.0625, -0.2500, 0.0000, 0.0000, -0.0625, -0.0625, 0.1250, -0.0625, 0.0000, 0.2500, 0.0000, 0.0000, 0.2500, 0.1250, 0.0000, -0.0625, 0.0000, -0.1875, 0.0000, 0.0000, 0.0000, -0.0625, 0.1250, 0.0625, 0.0000, 0.0000, 0.0000, -0.1875, 0.0000, 0.0625, 0.2500, 0.0000, -0.1250, 0.1875, 0.0000, 0.0000, -0.1250, -0.2500, 0.0000, 0.2500, -0.0625, 0.0000, 0.1250, -0.0625, 0.0000, 0.0000, 0.0000, 0.0000, -0.2500, 0.0000, -0.1875, -0.1875, 0.0625, -0.1250, 0.0000, 0.2500, 0.0000, 0.0000, -0.1875, -0.1250, 0.0000, 0.0000, 0.0000, -0.1875, -0.1250, -0.2500, 0.0000, 0.0000, 0.0000, 0.0000, 0.1250, 0.0000, -0.1875, 0.0625, 0.0000, 0.0000, 0.0000, 0.0000, 0.0625, 0.0000, 0.0000, 0.0000, 0.0625, -0.1250, 0.0000, 0.2500, -0.2500, 0.0000, -0.1250, -0.3125, 0.1250, -0.3750, -0.0625, 0.0000, -0.0625, 0.0000, -0.0625, 0.0625, 0.0000, -0.1250, -0.1875, 0.0000, 0.0625, 0.0000, -0.2500, 0.0000, -0.0625, 0.0000, 0.0000, 0.0000, 0.0000, 0.0000, 0.0000, 0.0000, 0.0625, 0.1250, 0.0000, 0.0000, 0.0000, -0.0625, 0.0625, 0.0000, 0.0000, 0.1875, 0.0625, 0.0000, 0.0000, 0.0625, -0.0625, 0.0625, -0.0625, 0.0000, -0.0625, 0.0000, 0.0000, 0.1875, 0.0000, -0.1875, 0.1250, 0.0000, 0.1875, -0.2500, -0.0625, -0.1875, 0.0000, 0.1250, 0.0000, 0.0000, 0.0000, -0.0625, 0.0000, 0.0625, 0.0000, 0.1875, 0.0000, 0.0000, 0.0000, 0.0000, 0.0625, 0.0000, 0.0000, 0.3125, 0.0000, 0.0625, 0.0000, 0.0000, 0.0000, 0.0000, 0.0000, 0.0000, -0.1875, 0.0000, 0.0000, 0.0000, 0.1875, 0.0000, 0.1875, 0.0625, 0.1875, 0.0000, 0.1875, -0.2500, 0.0000, 0.0000, -0.1250, 0.0000, 0.1250, -0.1875, 0.0000, -0.1250, 0.0000, 0.0000, 0.0000, 0.0000, 0.0000, 0.0000, -0.0625, 0.1875, 0.0000, 0.0625, 0.1250, 0.0000, 0.0000, 0.0000, 0.1250, 0.1250, 0.0000, 0.0000, 0.0000, -0.1875, 0.0625, 0.0000, 0.1250, 0.0000, 0.1875, -0.1875, 0.1875, 0.0000, 0.1250, 0.0000, 0.0000, 0.0000, 0.1250, 0.1250, -0.1875, 0.0000, 0.0625, 0.0625, 0.1875, 0.0000, 0.0000, 0.0000, 0.0000, 0.0000, -0.2500, -0.1875, 0.0000, 0.0000, 0.1250, 0.0000, 0.0625, -0.1250, 0.0000, 0.3125, -0.1250, 0.0625, 0.0000, -0.2500, 0.0000, -0.1250, 0.0625, -0.3125, 0.0000, 0.0000, 0.0000, 0.0000, 0.0000, -0.1875, 0.0000, 0.0000, 0.0000, 0.0625, 0.1250, -0.1875, 0.0000, 0.0000, 0.0000, 0.0000, 0.0000, 0.0000, -0.1875, 0.0000, 0.0000, 0.1250, -0.1250, 0.0000, 0.0000, 0.0000, -0.1250, 0.0000, 0.0000, 0.0000, 0.0000, 0.0625, 0.0000, 0.0625, 0.0000, -0.1250, 0.0000, 0.2500, -0.1250, 0.1875, 0.0000, -0.1250, -0.0625, 0.0625, 0.0625, 0.1250, 0.2500, 0.0000, 0.0000, 0.0000, 0.2500, 0.0000, 0.0000, 0.0000, 0.0000, 0.0000, -0.1250, 0.0000, -0.1250, -0.1875, 0.0000, 0.0000, 0.0000, 0.0000, 0.0000, 0.0000, 0.0000, 0.1250, 0.1250, 0.0000, 0.0000, 0.0000, 0.0000, 0.0625, 0.0000, -0.1875, 0.0000, 0.1250, 0.0000, 0.0000, 0.0000, 0.1250, -0.0625, 0.0000, 0.0000, -0.1250, 0.1875, 0.0000, 0.0000, 0.0000, 0.0000, -0.1250, 0.0000, 0.0000, 0.2500, 0.0000, 0.0000, 0.0000, 0.0000, 0.0000, 0.0000, 0.0625, 0.1875, 0.0000, -0.0625, 0.1875, 0.0000, 0.1875, -0.1250, -0.1250, -0.1875, -0.1250, 0.0000, 0.0000, 0.0000, 0.0000, 0.0000, 0.0000, 0.0000, 0.0625, -0.1250, -0.1875, -0.0625, -0.1875, -0.1250, 0.0000, 0.0000, 0.1250, 0.0000, 0.0000, 0.0000, 0.0000, 0.0000, -0.0625, -0.1250, 0.0000, 0.0625, 0.0000, 0.1875, 0.0000, 0.0625, 0.0000, -0.1875, 0.0000, 0.0000, -0.0625, 0.0000, 0.2500, 0.0000, 0.0625, 0.0000, 0.0000, 0.0000, -0.1250, -0.0625, 0.0625, 0.0000, -0.2500, 0.0000, 0.0000, 0.0000, 0.1250, 0.0000, 0.0000, 0.0000, 0.0000, -0.0625, 0.1250, 0.1250, 0.0000, 0.1875, -0.1250, 0.0625, 0.0000, 0.0000, 0.0625, 0.0000, 0.0000, 0.0000, 0.0000, 0.0000, 0.0000, 0.0000, 0.1250, 0.0000, 0.0000, 0.0000, 0.0000, 0.0000, -0.1250, 0.0000, 0.0000, 0.0000, 0.0000, 0.0000, 0.2500, -0.1250, 0.0000, 0.1250, 0.0000, 0.0000, 0.1250, -0.0625, 0.1250, 0.1250, 0.0000, 0.0000, 0.0000, 0.0000, 0.0000, 0.0625, -0.1875, 0.0000, -0.0625, 0.0000, 0.0000, 0.0000, -0.1875, -0.1875, 0.0625, 0.0000, 0.0000, -0.0625, 0.1250, 0.1875, 0.1250, 0.0000, 0.0000, 0.0000, -0.0625, -0.1250, 0.0000, 0.0000, -0.1250, 0.0000, 0.0000, 0.0625, 0.0000, 0.1875, 0.0000, 0.0000, 0.0000, 0.0000, 0.0000, 0.0625, 0.0000, 0.1875, 0.1250, 0.0000, -0.1875, 0.0000, 0.1875, 0.0000, 0.0000, 0.0000, 0.1875, 0.0000, 0.0625, -0.0625, 0.1875, 0.0000, -0.0625, 0.0000, 0.0000, -0.1875, 0.0000, 0.0625, 0.0000, 0.0000, 0.0000, 0.0000, -0.1250, 0.0000, 0.0000, 0.0000, -0.1875, 0.0000, -0.0625, -0.1250, 0.0000, 0.0000, -0.1250, -0.0625, -0.1250, 0.0000, 0.0000, 0.0000, 0.1250, 0.0000, 0.0000, 0.0000, 0.0000, -0.0625, -0.1250, 0.0625, 0.0000, 0.0000, 0.0000, 0.0000, -0.0625, -0.2500, 0.0000, 0.1250, 0.0000, 0.0000, 0.0000, -0.1875, 0.0000, 0.0000, -0.0625, -0.2500, 0.0000, 0.0000, -0.1875, 0.0000, 0.1875, 0.1250, -0.1250, 0.1250, 0.0000, 0.0000, 0.0000, 0.0000, 0.0625, 0.0000, -0.2500, 0.0000, 0.0000, 0.0000, 0.0000, -0.2500, 0.0625, 0.0625, 0.0000, -0.0625, 0.0000, 0.0000, 0.1875, 0.0000, -0.3125, 0.0000, -0.1875, -0.1250, -0.1250, 0.0625, 0.0625, 0.0000, 0.0000, -0.0625, -0.1250, 0.0000, 0.1250, -0.2500, 0.0000, -0.0625, 0.1250, 0.0000, 0.0000, -0.1250, -0.1250, 0.0000, -0.1250, -0.0625, -0.1875, -0.1250, 0.0000, 0.0000, 0.0000, 0.0000, 0.0000, 0.0000, 0.0000, 0.0000, 0.0000, 0.0000, -0.0625, 0.0625, 0.0000, 0.1250, 0.0000, 0.0000, 0.0625, 0.0000, 0.0000, 0.0000, 0.0625, 0.0000, 0.0000, -0.0625, 0.0000, 0.0000, 0.0000, 0.1250, 0.0000, 0.1875, 0.0000, 0.0000, 0.1875, 0.1875, 0.0000, -0.1250, 0.1875, 0.0000, -0.1250, 0.0000, 0.0000, 0.0000, 0.0000, 0.0000, -0.1250, 0.1875, -0.2500, 0.0000, 0.0625, -0.0625, 0.0000, 0.0000, 0.0000, 0.0000, -0.0625, 0.0000, 0.1250, 0.1875, 0.0625, -0.2500, 0.0000, 0.0000, 0.0000, 0.0000};
#endif

#endif
